// Auto-generated TFLite model array for ESP32-S3
// Model size: 5,600 bytes
#ifndef CROP_MODEL_DATA_H
#define CROP_MODEL_DATA_H

const unsigned int crop_model_len = 5600;
alignas(8) const unsigned char crop_model[] = {
  0x20, 0x00, 0x00, 0x00, 0x54, 0x46, 0x4c, 0x33, 0x00, 0x00, 0x00, 0x00,
  0x14, 0x00, 0x20, 0x00, 0x1c, 0x00, 0x18, 0x00, 0x14, 0x00, 0x10, 0x00,
  0x0c, 0x00, 0x00, 0x00, 0x08, 0x00, 0x04, 0x00, 0x14, 0x00, 0x00, 0x00,
  0x1c, 0x00, 0x00, 0x00, 0x9c, 0x00, 0x00, 0x00, 0xf4, 0x00, 0x00, 0x00,
  0x6c, 0x07, 0x00, 0x00, 0x7c, 0x07, 0x00, 0x00, 0x70, 0x15, 0x00, 0x00,
  0x03, 0x00, 0x00, 0x00, 0x01, 0x00, 0x00, 0x00, 0x10, 0x00, 0x00, 0x00,
  0x00, 0x00, 0x0a, 0x00, 0x10, 0x00, 0x0c, 0x00, 0x08, 0x00, 0x04, 0x00,
  0x0a, 0x00, 0x00, 0x00, 0x0c, 0x00, 0x00, 0x00, 0x1c, 0x00, 0x00, 0x00,
  0x3c, 0x00, 0x00, 0x00, 0x0f, 0x00, 0x00, 0x00, 0x73, 0x65, 0x72, 0x76,
  0x69, 0x6e, 0x67, 0x5f, 0x64, 0x65, 0x66, 0x61, 0x75, 0x6c, 0x74, 0x00,
  0x01, 0x00, 0x00, 0x00, 0x04, 0x00, 0x00, 0x00, 0x8c, 0xff, 0xff, 0xff,
  0x0a, 0x00, 0x00, 0x00, 0x04, 0x00, 0x00, 0x00, 0x08, 0x00, 0x00, 0x00,
  0x6f, 0x75, 0x74, 0x70, 0x75, 0x74, 0x5f, 0x30, 0x00, 0x00, 0x00, 0x00,
  0x01, 0x00, 0x00, 0x00, 0x04, 0x00, 0x00, 0x00, 0x7a, 0xf8, 0xff, 0xff,
  0x04, 0x00, 0x00, 0x00, 0x12, 0x00, 0x00, 0x00, 0x73, 0x6f, 0x69, 0x6c,
  0x5f, 0x63, 0x6c, 0x69, 0x6d, 0x61, 0x74, 0x65, 0x5f, 0x69, 0x6e, 0x70,
  0x75, 0x74, 0x00, 0x00, 0x02, 0x00, 0x00, 0x00, 0x34, 0x00, 0x00, 0x00,
  0x04, 0x00, 0x00, 0x00, 0xdc, 0xff, 0xff, 0xff, 0x0d, 0x00, 0x00, 0x00,
  0x04, 0x00, 0x00, 0x00, 0x13, 0x00, 0x00, 0x00, 0x43, 0x4f, 0x4e, 0x56,
  0x45, 0x52, 0x53, 0x49, 0x4f, 0x4e, 0x5f, 0x4d, 0x45, 0x54, 0x41, 0x44,
  0x41, 0x54, 0x41, 0x00, 0x08, 0x00, 0x0c, 0x00, 0x08, 0x00, 0x04, 0x00,
  0x08, 0x00, 0x00, 0x00, 0x0c, 0x00, 0x00, 0x00, 0x04, 0x00, 0x00, 0x00,
  0x13, 0x00, 0x00, 0x00, 0x6d, 0x69, 0x6e, 0x5f, 0x72, 0x75, 0x6e, 0x74,
  0x69, 0x6d, 0x65, 0x5f, 0x76, 0x65, 0x72, 0x73, 0x69, 0x6f, 0x6e, 0x00,
  0x0e, 0x00, 0x00, 0x00, 0x74, 0x06, 0x00, 0x00, 0x6c, 0x06, 0x00, 0x00,
  0x04, 0x06, 0x00, 0x00, 0x94, 0x04, 0x00, 0x00, 0x44, 0x04, 0x00, 0x00,
  0x34, 0x02, 0x00, 0x00, 0xa4, 0x01, 0x00, 0x00, 0xb4, 0x00, 0x00, 0x00,
  0xac, 0x00, 0x00, 0x00, 0xa4, 0x00, 0x00, 0x00, 0x9c, 0x00, 0x00, 0x00,
  0x94, 0x00, 0x00, 0x00, 0x74, 0x00, 0x00, 0x00, 0x04, 0x00, 0x00, 0x00,
  0x32, 0xf9, 0xff, 0xff, 0x04, 0x00, 0x00, 0x00, 0x60, 0x00, 0x00, 0x00,
  0x0c, 0x00, 0x00, 0x00, 0x08, 0x00, 0x0e, 0x00, 0x08, 0x00, 0x04, 0x00,
  0x08, 0x00, 0x00, 0x00, 0x10, 0x00, 0x00, 0x00, 0x28, 0x00, 0x00, 0x00,
  0x00, 0x00, 0x06, 0x00, 0x08, 0x00, 0x04, 0x00, 0x06, 0x00, 0x00, 0x00,
  0x04, 0x00, 0x00, 0x00, 0x01, 0x00, 0x00, 0x00, 0xeb, 0x03, 0x00, 0x00,
  0x0c, 0x00, 0x18, 0x00, 0x14, 0x00, 0x10, 0x00, 0x0c, 0x00, 0x04, 0x00,
  0x0c, 0x00, 0x00, 0x00, 0xee, 0xe3, 0xd3, 0x79, 0x0c, 0x8f, 0x07, 0x74,
  0x02, 0x00, 0x00, 0x00, 0x02, 0x00, 0x00, 0x00, 0x04, 0x00, 0x00, 0x00,
  0x06, 0x00, 0x00, 0x00, 0x32, 0x2e, 0x32, 0x31, 0x2e, 0x30, 0x00, 0x00,
  0x9e, 0xf9, 0xff, 0xff, 0x04, 0x00, 0x00, 0x00, 0x10, 0x00, 0x00, 0x00,
  0x31, 0x2e, 0x31, 0x34, 0x2e, 0x30, 0x00, 0x00, 0x00, 0x00, 0x00, 0x00,
  0x00, 0x00, 0x00, 0x00, 0x88, 0xf9, 0xff, 0xff, 0x8c, 0xf9, 0xff, 0xff,
  0x90, 0xf9, 0xff, 0xff, 0x94, 0xf9, 0xff, 0xff, 0xca, 0xf9, 0xff, 0xff,
  0x04, 0x00, 0x00, 0x00, 0xe0, 0x00, 0x00, 0x00, 0xdf, 0xf0, 0x20, 0x0f,
  0x1a, 0x0b, 0x81, 0xca, 0xee, 0xbf, 0x9a, 0x7f, 0x17, 0x4a, 0x39, 0x81,
  0x97, 0x1c, 0xbb, 0x19, 0xe6, 0xe1, 0x5e, 0x81, 0x11, 0x9e, 0xe7, 0x12,
  0xc1, 0xcb, 0x35, 0x7f, 0xfa, 0x9b, 0x5f, 0xf5, 0xd0, 0x81, 0xff, 0xf5,
  0xe0, 0xe3, 0x1c, 0x58, 0x81, 0xfb, 0x4d, 0x1e, 0xe5, 0x46, 0x81, 0x47,
  0x30, 0xb5, 0x3b, 0xb8, 0x05, 0xca, 0x06, 0x12, 0x7f, 0x12, 0x22, 0x09,
  0xd7, 0x4e, 0x25, 0x81, 0xac, 0xb0, 0xc0, 0x98, 0x0d, 0x0c, 0x7f, 0x01,
  0x19, 0x40, 0x4d, 0x32, 0x9c, 0x53, 0x81, 0x4d, 0x17, 0x0b, 0x26, 0xe7,
  0x2a, 0xe7, 0x81, 0x93, 0x81, 0xa1, 0xf4, 0xab, 0x45, 0xe0, 0x77, 0xce,
  0x81, 0xb5, 0x2c, 0x17, 0x68, 0xd0, 0xc7, 0x4b, 0x1d, 0xbc, 0x1d, 0x81,
  0x37, 0x55, 0xdc, 0x49, 0x3b, 0x0d, 0x7f, 0xb6, 0x7f, 0x14, 0xaa, 0xcb,
  0xe3, 0xb9, 0x42, 0xe5, 0x81, 0xef, 0x04, 0x0d, 0x1a, 0x09, 0x35, 0x81,
  0x10, 0x27, 0x1b, 0xab, 0xd9, 0xb4, 0x81, 0xdb, 0xc1, 0x07, 0x5b, 0xc9,
  0x41, 0x49, 0xe1, 0x81, 0x52, 0xdf, 0x49, 0xc7, 0x34, 0xae, 0x81, 0xfe,
  0x2c, 0xb5, 0x81, 0xec, 0x15, 0x30, 0xd8, 0x1d, 0xcb, 0xac, 0xe5, 0xd1,
  0x02, 0xff, 0x81, 0x22, 0x23, 0x70, 0xd7, 0x7f, 0x0e, 0xd9, 0x35, 0xd1,
  0x81, 0xf2, 0xa7, 0x04, 0xf2, 0x1d, 0x7f, 0x2d, 0x40, 0x2c, 0x01, 0x23,
  0x05, 0x0d, 0xaa, 0x5c, 0x1e, 0x81, 0x9c, 0x27, 0xd2, 0x30, 0x04, 0xaa,
  0x7f, 0xaf, 0xdb, 0x28, 0x98, 0xcb, 0x81, 0x17, 0x2f, 0x81, 0x3d, 0xe9,
  0x7c, 0x5e, 0xce, 0x5e, 0xb6, 0xfa, 0xff, 0xff, 0x04, 0x00, 0x00, 0x00,
  0x80, 0x00, 0x00, 0x00, 0x04, 0x03, 0x00, 0x00, 0xa0, 0x11, 0x00, 0x00,
  0x4c, 0x0c, 0x00, 0x00, 0xdf, 0x07, 0x00, 0x00, 0x76, 0x02, 0x00, 0x00,
  0xd0, 0x0a, 0x00, 0x00, 0x9a, 0x0b, 0x00, 0x00, 0x0a, 0x03, 0x00, 0x00,
  0xef, 0x03, 0x00, 0x00, 0xb0, 0x01, 0x00, 0x00, 0x67, 0x08, 0x00, 0x00,
  0x5f, 0xfd, 0xff, 0xff, 0x13, 0x06, 0x00, 0x00, 0xe2, 0x0e, 0x00, 0x00,
  0x7c, 0x08, 0x00, 0x00, 0x30, 0xfc, 0xff, 0xff, 0xb0, 0x13, 0x00, 0x00,
  0x92, 0x05, 0x00, 0x00, 0xef, 0x00, 0x00, 0x00, 0xfa, 0x06, 0x00, 0x00,
  0xe8, 0x04, 0x00, 0x00, 0x37, 0x06, 0x00, 0x00, 0xee, 0x0d, 0x00, 0x00,
  0xa5, 0x0a, 0x00, 0x00, 0x5b, 0x05, 0x00, 0x00, 0xea, 0x0d, 0x00, 0x00,
  0xef, 0x0c, 0x00, 0x00, 0xe4, 0x0b, 0x00, 0x00, 0x73, 0xf9, 0xff, 0xff,
  0xa2, 0x03, 0x00, 0x00, 0x20, 0x0a, 0x00, 0x00, 0xbb, 0x11, 0x00, 0x00,
  0x42, 0xfb, 0xff, 0xff, 0x04, 0x00, 0x00, 0x00, 0x00, 0x02, 0x00, 0x00,
  0xb6, 0xef, 0x17, 0x6b, 0xe7, 0x7f, 0x47, 0x99, 0x84, 0x1b, 0xe3, 0x3e,
  0xd3, 0x24, 0x28, 0x9f, 0x1b, 0x3c, 0x0a, 0x5e, 0x51, 0x1b, 0xc2, 0xd0,
  0xff, 0xf7, 0x36, 0x5d, 0x17, 0x9f, 0x6f, 0x2c, 0x9c, 0x64, 0x66, 0x45,
  0x0e, 0x10, 0x24, 0xff, 0x41, 0xff, 0x16, 0xb5, 0x8a, 0x23, 0x6a, 0xc3,
  0x5b, 0xd4, 0x3c, 0xd2, 0x49, 0xe5, 0x7f, 0x4b, 0xdd, 0xac, 0x73, 0xca,
  0xac, 0x0a, 0x56, 0x1f, 0x36, 0x32, 0x11, 0xf6, 0x8e, 0x56, 0x04, 0x9a,
  0xe4, 0x2a, 0x14, 0x93, 0x1e, 0x61, 0x49, 0xd1, 0xf8, 0x45, 0x24, 0xf6,
  0x45, 0x34, 0x7f, 0xc4, 0x5a, 0xa2, 0x37, 0xd5, 0xa5, 0xf0, 0x39, 0xe2,
  0x97, 0x66, 0xf3, 0xec, 0xfd, 0x45, 0x7f, 0xb1, 0xd7, 0xd2, 0xc3, 0x5d,
  0xe6, 0x08, 0x3e, 0xef, 0x50, 0x0c, 0x55, 0x68, 0x05, 0xe4, 0x19, 0xd5,
  0x0f, 0xdd, 0x0f, 0x3b, 0x41, 0x21, 0xe1, 0x17, 0x12, 0x03, 0x28, 0xa4,
  0x4b, 0xc6, 0x6c, 0x11, 0xfc, 0x4c, 0xe8, 0xba, 0xfb, 0x16, 0xd8, 0x3b,
  0x05, 0xbb, 0x17, 0x49, 0xe7, 0x39, 0xd5, 0x37, 0xd2, 0xcc, 0x60, 0x35,
  0x77, 0x41, 0x17, 0x7f, 0x1e, 0x21, 0x47, 0x12, 0x07, 0x18, 0xbc, 0x4e,
  0x29, 0x6c, 0x53, 0xd1, 0x3b, 0x2a, 0xf2, 0x36, 0xda, 0x12, 0xbb, 0xbc,
  0x1e, 0x5d, 0x7f, 0x36, 0x2b, 0x35, 0xcf, 0x15, 0xf2, 0x27, 0xf9, 0xf9,
  0x39, 0x13, 0x3a, 0x51, 0x22, 0xfb, 0xff, 0xde, 0x81, 0x02, 0xb7, 0xf3,
  0x3d, 0x20, 0xc5, 0x13, 0x3d, 0x78, 0xd9, 0x0d, 0x09, 0x6c, 0x4d, 0xf3,
  0xf3, 0xd0, 0x3e, 0x26, 0x11, 0x1e, 0x50, 0xf3, 0xfb, 0x5f, 0xe0, 0xbe,
  0x26, 0xcb, 0x72, 0xf4, 0x34, 0xdd, 0x13, 0x3b, 0x62, 0xdf, 0x64, 0x06,
  0x6b, 0x3e, 0x0f, 0x39, 0xdf, 0xe3, 0x25, 0xfc, 0xd3, 0x4c, 0x01, 0x7f,
  0xe1, 0xda, 0x08, 0x32, 0xe7, 0x4f, 0x88, 0x3f, 0x4b, 0x21, 0x1a, 0xc5,
  0x7f, 0x94, 0x77, 0xf9, 0x19, 0x3c, 0x23, 0x96, 0x3e, 0x3e, 0xd3, 0x4e,
  0x7b, 0xed, 0xa4, 0x69, 0xf9, 0x08, 0xad, 0x16, 0xe4, 0xee, 0x53, 0x71,
  0x38, 0xbc, 0x6f, 0x14, 0x3f, 0x53, 0x25, 0x5a, 0x0c, 0x75, 0xcc, 0xc6,
  0x6d, 0x15, 0x08, 0x74, 0x88, 0x2e, 0x7f, 0x2e, 0x1f, 0x1e, 0xf8, 0xcf,
  0x66, 0xa9, 0x6b, 0x92, 0x68, 0x17, 0xea, 0xbb, 0x7f, 0x70, 0xfa, 0x48,
  0xcc, 0x4a, 0x70, 0x02, 0x44, 0xdd, 0x5f, 0x0b, 0x3c, 0xdf, 0xbd, 0xe7,
  0xd2, 0x47, 0x86, 0x48, 0xdf, 0x14, 0xc2, 0x32, 0x57, 0x66, 0xae, 0xf9,
  0x57, 0x0a, 0xea, 0x5a, 0x45, 0xb9, 0x73, 0x30, 0xd7, 0x72, 0x6d, 0x4d,
  0xd9, 0xc7, 0xfe, 0x06, 0x32, 0xda, 0x27, 0xce, 0xed, 0xde, 0x43, 0x67,
  0xe2, 0xb9, 0xf1, 0x05, 0x4c, 0x08, 0x7f, 0xe7, 0x24, 0x38, 0xd1, 0x07,
  0x50, 0x37, 0x24, 0xd9, 0xcc, 0x64, 0x6a, 0x90, 0x07, 0x4b, 0x4c, 0xde,
  0x4e, 0x6b, 0xdf, 0x57, 0xad, 0xe2, 0xe0, 0x2c, 0xdb, 0x01, 0x33, 0x4e,
  0x7f, 0x37, 0x31, 0xdb, 0xdc, 0xcd, 0x03, 0xfb, 0xd0, 0x08, 0x20, 0x55,
  0x70, 0x6f, 0xb0, 0x4d, 0xb5, 0x45, 0x42, 0xe6, 0xdb, 0x36, 0xfb, 0x1a,
  0xf6, 0xd4, 0xe8, 0xa7, 0x59, 0x4b, 0x7f, 0x7e, 0x13, 0xb4, 0x70, 0xbd,
  0xdc, 0x0c, 0x62, 0xdb, 0x39, 0x1c, 0x2b, 0xd4, 0x2c, 0x30, 0xf4, 0x1a,
  0x19, 0x4c, 0x2a, 0xc1, 0xe0, 0x55, 0xbc, 0x3a, 0xcd, 0xb4, 0x4e, 0x23,
  0x34, 0xe0, 0x84, 0x54, 0xe5, 0x81, 0xea, 0x95, 0x3e, 0x0c, 0x15, 0x4e,
  0x30, 0x1d, 0x08, 0x03, 0xfc, 0x22, 0xf9, 0xef, 0xb4, 0x2c, 0xaa, 0x35,
  0xdb, 0x6c, 0x89, 0x58, 0xf1, 0x4e, 0x8a, 0x50, 0xc5, 0x60, 0xb4, 0x16,
  0x14, 0x81, 0x37, 0xcb, 0x29, 0x55, 0x50, 0xe8, 0x4e, 0xfd, 0xff, 0xff,
  0x04, 0x00, 0x00, 0x00, 0x40, 0x00, 0x00, 0x00, 0xe1, 0x07, 0x00, 0x00,
  0x45, 0x09, 0x00, 0x00, 0xbc, 0x02, 0x00, 0x00, 0xbd, 0x04, 0x00, 0x00,
  0xf1, 0x03, 0x00, 0x00, 0x74, 0x03, 0x00, 0x00, 0x4d, 0x0a, 0x00, 0x00,
  0xb3, 0x06, 0x00, 0x00, 0x1d, 0x05, 0x00, 0x00, 0x27, 0xfc, 0xff, 0xff,
  0x15, 0x08, 0x00, 0x00, 0xa6, 0x09, 0x00, 0x00, 0xec, 0x09, 0x00, 0x00,
  0xa4, 0x07, 0x00, 0x00, 0x35, 0x01, 0x00, 0x00, 0x00, 0x03, 0x00, 0x00,
  0x9a, 0xfd, 0xff, 0xff, 0x04, 0x00, 0x00, 0x00, 0x60, 0x01, 0x00, 0x00,
  0x33, 0xc4, 0xf4, 0x0d, 0x99, 0xfc, 0x1a, 0x32, 0x16, 0xf5, 0x17, 0xaf,
  0x81, 0xe0, 0xec, 0xe6, 0x46, 0x8b, 0x81, 0x79, 0x00, 0xa5, 0x0d, 0x5f,
  0xcb, 0x93, 0xa9, 0x1b, 0xb6, 0xd4, 0xdc, 0x9c, 0x2e, 0xfc, 0xd5, 0x38,
  0x02, 0x81, 0x10, 0xd3, 0xf0, 0xc6, 0x09, 0x3b, 0xc7, 0xbe, 0x04, 0x47,
  0x9c, 0xec, 0x10, 0xd5, 0x09, 0x44, 0x55, 0xb7, 0xa4, 0x1c, 0x8e, 0x81,
  0xd1, 0x19, 0xb2, 0x1a, 0x81, 0x30, 0xbb, 0xba, 0xe9, 0x13, 0xd2, 0xe9,
  0x45, 0x8c, 0x04, 0xa7, 0xd1, 0x25, 0x11, 0xc0, 0xd6, 0x3c, 0x18, 0xff,
  0xe9, 0xf3, 0xe4, 0xdc, 0xc4, 0x00, 0xbe, 0x20, 0x81, 0x28, 0xba, 0xea,
  0xdb, 0x0d, 0xd0, 0x44, 0x2d, 0x9c, 0x95, 0x27, 0x81, 0x0d, 0xb7, 0x36,
  0x0d, 0xac, 0xbc, 0xd1, 0x09, 0xca, 0xba, 0x81, 0x60, 0x5b, 0x58, 0x2a,
  0x91, 0xa7, 0xee, 0x9b, 0x6c, 0xd2, 0xd4, 0xa1, 0xd2, 0x2c, 0xfb, 0x22,
  0x0c, 0xfb, 0x23, 0x25, 0xe3, 0x81, 0xed, 0xfa, 0xfd, 0xcf, 0xd1, 0xdf,
  0x49, 0x0d, 0x37, 0x81, 0xb9, 0x0b, 0xec, 0xe3, 0xcc, 0x1a, 0x8f, 0xa1,
  0xeb, 0x22, 0xaf, 0xe6, 0x03, 0x81, 0x29, 0xf8, 0xed, 0xcb, 0x23, 0xe5,
  0xf2, 0x21, 0x0b, 0x0d, 0x05, 0xc4, 0xd0, 0x20, 0x43, 0x02, 0x18, 0x39,
  0x0e, 0xa3, 0xf2, 0xc5, 0xc8, 0xfb, 0x90, 0x04, 0x4b, 0x20, 0x9a, 0x81,
  0xd5, 0x1c, 0xbd, 0xaa, 0x3f, 0x45, 0xb4, 0xbb, 0xd1, 0xfe, 0x81, 0xa7,
  0x04, 0x5b, 0x68, 0x0d, 0xec, 0xbb, 0xe8, 0xf8, 0x1a, 0x02, 0x00, 0x81,
  0xc8, 0x30, 0xe9, 0xe6, 0xfc, 0x11, 0x25, 0x39, 0xe4, 0xbb, 0xf5, 0x2b,
  0xe6, 0xdd, 0xc9, 0xc3, 0xfc, 0xdc, 0x4e, 0x10, 0x1e, 0x81, 0x44, 0xf7,
  0xbe, 0xb8, 0xab, 0xdd, 0xfe, 0x0c, 0x81, 0xc4, 0xd6, 0x36, 0x30, 0x40,
  0xdf, 0x98, 0x03, 0xba, 0xfe, 0x0e, 0x37, 0x01, 0x13, 0xdb, 0x81, 0xde,
  0x2a, 0xf5, 0xfc, 0xf5, 0x13, 0xdc, 0x18, 0x93, 0x81, 0xe7, 0x94, 0xfe,
  0x46, 0xd5, 0xcb, 0x4a, 0x38, 0xe4, 0x29, 0xd8, 0xf1, 0x8e, 0xc7, 0xb8,
  0x50, 0x0b, 0xc1, 0x3e, 0x24, 0xfc, 0x53, 0x8f, 0x3a, 0xae, 0xfd, 0xb1,
  0x81, 0x2e, 0xd8, 0xed, 0x81, 0xf1, 0x0f, 0xcb, 0xc3, 0x33, 0xd5, 0xd9,
  0x21, 0xb2, 0x2b, 0xf1, 0x2a, 0x07, 0xd9, 0xf7, 0xe2, 0x1c, 0x08, 0x2e,
  0xb8, 0xf3, 0x81, 0x25, 0x0e, 0xd1, 0x9d, 0xbf, 0xac, 0xf1, 0xd9, 0xf9,
  0x81, 0x14, 0x27, 0xe4, 0xac, 0x39, 0xb1, 0xff, 0xc2, 0x10, 0xf8, 0x2b,
  0x11, 0xed, 0x97, 0x9f, 0x06, 0xff, 0xff, 0xff, 0x04, 0x00, 0x00, 0x00,
  0x58, 0x00, 0x00, 0x00, 0x65, 0x00, 0x00, 0x00, 0x9f, 0x01, 0x00, 0x00,
  0x7a, 0x00, 0x00, 0x00, 0x96, 0xff, 0xff, 0xff, 0x37, 0x00, 0x00, 0x00,
  0xda, 0xff, 0xff, 0xff, 0xf5, 0xfe, 0xff, 0xff, 0x0a, 0x00, 0x00, 0x00,
  0x6b, 0x01, 0x00, 0x00, 0x3e, 0xff, 0xff, 0xff, 0x00, 0xff, 0xff, 0xff,
  0x5b, 0x00, 0x00, 0x00, 0xc7, 0xff, 0xff, 0xff, 0x49, 0xff, 0xff, 0xff,
  0xbf, 0xff, 0xff, 0xff, 0xd3, 0xff, 0xff, 0xff, 0x93, 0xfd, 0xff, 0xff,
  0xd3, 0x00, 0x00, 0x00, 0x8d, 0xff, 0xff, 0xff, 0x9e, 0x00, 0x00, 0x00,
  0x96, 0xff, 0xff, 0xff, 0x44, 0x01, 0x00, 0x00, 0x38, 0xff, 0xff, 0xff,
  0x3c, 0xff, 0xff, 0xff, 0x0f, 0x00, 0x00, 0x00, 0x4d, 0x4c, 0x49, 0x52,
  0x20, 0x43, 0x6f, 0x6e, 0x76, 0x65, 0x72, 0x74, 0x65, 0x64, 0x2e, 0x00,
  0x01, 0x00, 0x00, 0x00, 0x14, 0x00, 0x00, 0x00, 0x00, 0x00, 0x0e, 0x00,
  0x18, 0x00, 0x14, 0x00, 0x10, 0x00, 0x0c, 0x00, 0x08, 0x00, 0x04, 0x00,
  0x0e, 0x00, 0x00, 0x00, 0x14, 0x00, 0x00, 0x00, 0x1c, 0x00, 0x00, 0x00,
  0x38, 0x01, 0x00, 0x00, 0x3c, 0x01, 0x00, 0x00, 0x40, 0x01, 0x00, 0x00,
  0x04, 0x00, 0x00, 0x00, 0x6d, 0x61, 0x69, 0x6e, 0x00, 0x00, 0x00, 0x00,
  0x04, 0x00, 0x00, 0x00, 0xe0, 0x00, 0x00, 0x00, 0x98, 0x00, 0x00, 0x00,
  0x50, 0x00, 0x00, 0x00, 0x14, 0x00, 0x00, 0x00, 0x00, 0x00, 0x0e, 0x00,
  0x1a, 0x00, 0x14, 0x00, 0x10, 0x00, 0x0c, 0x00, 0x0b, 0x00, 0x04, 0x00,
  0x0e, 0x00, 0x00, 0x00, 0x1c, 0x00, 0x00, 0x00, 0x00, 0x00, 0x00, 0x09,
  0x1c, 0x00, 0x00, 0x00, 0x20, 0x00, 0x00, 0x00, 0x01, 0x00, 0x00, 0x00,
  0x00, 0x00, 0x06, 0x00, 0x08, 0x00, 0x04, 0x00, 0x06, 0x00, 0x00, 0x00,
  0x00, 0x00, 0x80, 0x3f, 0x01, 0x00, 0x00, 0x00, 0x0a, 0x00, 0x00, 0x00,
  0x01, 0x00, 0x00, 0x00, 0x09, 0x00, 0x00, 0x00, 0xca, 0xff, 0xff, 0xff,
  0x14, 0x00, 0x00, 0x00, 0x00, 0x00, 0x00, 0x08, 0x10, 0x00, 0x00, 0x00,
  0x14, 0x00, 0x00, 0x00, 0x04, 0x00, 0x04, 0x00, 0x04, 0x00, 0x00, 0x00,
  0x01, 0x00, 0x00, 0x00, 0x09, 0x00, 0x00, 0x00, 0x03, 0x00, 0x00, 0x00,
  0x08, 0x00, 0x00, 0x00, 0x02, 0x00, 0x00, 0x00, 0x01, 0x00, 0x00, 0x00,
  0x00, 0x00, 0x0e, 0x00, 0x14, 0x00, 0x00, 0x00, 0x10, 0x00, 0x0c, 0x00,
  0x0b, 0x00, 0x04, 0x00, 0x0e, 0x00, 0x00, 0x00, 0x10, 0x00, 0x00, 0x00,
  0x00, 0x00, 0x00, 0x08, 0x10, 0x00, 0x00, 0x00, 0x14, 0x00, 0x00, 0x00,
  0xba, 0xff, 0xff, 0xff, 0x00, 0x00, 0x00, 0x01, 0x01, 0x00, 0x00, 0x00,
  0x08, 0x00, 0x00, 0x00, 0x03, 0x00, 0x00, 0x00, 0x07, 0x00, 0x00, 0x00,
  0x04, 0x00, 0x00, 0x00, 0x03, 0x00, 0x00, 0x00, 0x00, 0x00, 0x0e, 0x00,
  0x16, 0x00, 0x00, 0x00, 0x10, 0x00, 0x0c, 0x00, 0x0b, 0x00, 0x04, 0x00,
  0x0e, 0x00, 0x00, 0x00, 0x18, 0x00, 0x00, 0x00, 0x00, 0x00, 0x00, 0x08,
  0x18, 0x00, 0x00, 0x00, 0x1c, 0x00, 0x00, 0x00, 0x00, 0x00, 0x06, 0x00,
  0x08, 0x00, 0x07, 0x00, 0x06, 0x00, 0x00, 0x00, 0x00, 0x00, 0x00, 0x01,
  0x01, 0x00, 0x00, 0x00, 0x07, 0x00, 0x00, 0x00, 0x03, 0x00, 0x00, 0x00,
  0x00, 0x00, 0x00, 0x00, 0x06, 0x00, 0x00, 0x00, 0x05, 0x00, 0x00, 0x00,
  0x01, 0x00, 0x00, 0x00, 0x0a, 0x00, 0x00, 0x00, 0x01, 0x00, 0x00, 0x00,
  0x00, 0x00, 0x00, 0x00, 0x0b, 0x00, 0x00, 0x00, 0xf8, 0x0b, 0x00, 0x00,
  0x70, 0x0a, 0x00, 0x00, 0xe4, 0x08, 0x00, 0x00, 0xa8, 0x07, 0x00, 0x00,
  0x84, 0x06, 0x00, 0x00, 0x88, 0x04, 0x00, 0x00, 0xa4, 0x02, 0x00, 0x00,
  0xe8, 0x01, 0x00, 0x00, 0x2c, 0x01, 0x00, 0x00, 0x80, 0x00, 0x00, 0x00,
  0x04, 0x00, 0x00, 0x00, 0x4a, 0xf4, 0xff, 0xff, 0x00, 0x00, 0x00, 0x01,
  0x18, 0x00, 0x00, 0x00, 0x20, 0x00, 0x00, 0x00, 0x3c, 0x00, 0x00, 0x00,
  0x0b, 0x00, 0x00, 0x00, 0x00, 0x00, 0x00, 0x09, 0x50, 0x00, 0x00, 0x00,
  0x02, 0x00, 0x00, 0x00, 0xff, 0xff, 0xff, 0xff, 0x16, 0x00, 0x00, 0x00,
  0x34, 0xf4, 0xff, 0xff, 0x08, 0x00, 0x00, 0x00, 0x10, 0x00, 0x00, 0x00,
  0x01, 0x00, 0x00, 0x00, 0x80, 0xff, 0xff, 0xff, 0xff, 0xff, 0xff, 0xff,
  0x01, 0x00, 0x00, 0x00, 0x00, 0x00, 0x80, 0x3b, 0x1b, 0x00, 0x00, 0x00,
  0x53, 0x74, 0x61, 0x74, 0x65, 0x66, 0x75, 0x6c, 0x50, 0x61, 0x72, 0x74,
  0x69, 0x74, 0x69, 0x6f, 0x6e, 0x65, 0x64, 0x43, 0x61, 0x6c, 0x6c, 0x5f,
  0x31, 0x3a, 0x30, 0x00, 0x02, 0x00, 0x00, 0x00, 0x01, 0x00, 0x00, 0x00,
  0x16, 0x00, 0x00, 0x00, 0xc2, 0xf4, 0xff, 0xff, 0x00, 0x00, 0x00, 0x01,
  0x18, 0x00, 0x00, 0x00, 0x20, 0x00, 0x00, 0x00, 0x40, 0x00, 0x00, 0x00,
  0x0a, 0x00, 0x00, 0x00, 0x00, 0x00, 0x00, 0x09, 0x80, 0x00, 0x00, 0x00,
  0x02, 0x00, 0x00, 0x00, 0xff, 0xff, 0xff, 0xff, 0x16, 0x00, 0x00, 0x00,
  0xac, 0xf4, 0xff, 0xff, 0x08, 0x00, 0x00, 0x00, 0x14, 0x00, 0x00, 0x00,
  0x01, 0x00, 0x00, 0x00, 0x47, 0x00, 0x00, 0x00, 0x00, 0x00, 0x00, 0x00,
  0x00, 0x00, 0x00, 0x00, 0x01, 0x00, 0x00, 0x00, 0x8e, 0x83, 0xc8, 0x3e,
  0x44, 0x00, 0x00, 0x00, 0x73, 0x65, 0x71, 0x75, 0x65, 0x6e, 0x74, 0x69,
  0x61, 0x6c, 0x5f, 0x31, 0x2f, 0x63, 0x72, 0x6f, 0x70, 0x5f, 0x6f, 0x75,
  0x74, 0x70, 0x75, 0x74, 0x5f, 0x31, 0x2f, 0x4d, 0x61, 0x74, 0x4d, 0x75,
  0x6c, 0x3b, 0x73, 0x65, 0x71, 0x75, 0x65, 0x6e, 0x74, 0x69, 0x61, 0x6c,
  0x5f, 0x31, 0x2f, 0x63, 0x72, 0x6f, 0x70, 0x5f, 0x6f, 0x75, 0x74, 0x70,
  0x75, 0x74, 0x5f, 0x31, 0x2f, 0x42, 0x69, 0x61, 0x73, 0x41, 0x64, 0x64,
  0x00, 0x00, 0x00, 0x00, 0x02, 0x00, 0x00, 0x00, 0x01, 0x00, 0x00, 0x00,
  0x16, 0x00, 0x00, 0x00, 0x6a, 0xf5, 0xff, 0xff, 0x00, 0x00, 0x00, 0x01,
  0x18, 0x00, 0x00, 0x00, 0x20, 0x00, 0x00, 0x00, 0x3c, 0x00, 0x00, 0x00,
  0x09, 0x00, 0x00, 0x00, 0x00, 0x00, 0x00, 0x09, 0x90, 0x00, 0x00, 0x00,
  0x02, 0x00, 0x00, 0x00, 0xff, 0xff, 0xff, 0xff, 0x10, 0x00, 0x00, 0x00,
  0x54, 0xf5, 0xff, 0xff, 0x08, 0x00, 0x00, 0x00, 0x10, 0x00, 0x00, 0x00,
  0x01, 0x00, 0x00, 0x00, 0x80, 0xff, 0xff, 0xff, 0xff, 0xff, 0xff, 0xff,
  0x01, 0x00, 0x00, 0x00, 0x69, 0x2e, 0xaa, 0x3d, 0x58, 0x00, 0x00, 0x00,
  0x73, 0x65, 0x71, 0x75, 0x65, 0x6e, 0x74, 0x69, 0x61, 0x6c, 0x5f, 0x31,
  0x2f, 0x68, 0x69, 0x64, 0x64, 0x65, 0x6e, 0x32, 0x5f, 0x31, 0x2f, 0x4d,
  0x61, 0x74, 0x4d, 0x75, 0x6c, 0x3b, 0x73, 0x65, 0x71, 0x75, 0x65, 0x6e,
  0x74, 0x69, 0x61, 0x6c, 0x5f, 0x31, 0x2f, 0x68, 0x69, 0x64, 0x64, 0x65,
  0x6e, 0x32, 0x5f, 0x31, 0x2f, 0x52, 0x65, 0x6c, 0x75, 0x3b, 0x73, 0x65,
  0x71, 0x75, 0x65, 0x6e, 0x74, 0x69, 0x61, 0x6c, 0x5f, 0x31, 0x2f, 0x68,
  0x69, 0x64, 0x64, 0x65, 0x6e, 0x32, 0x5f, 0x31, 0x2f, 0x42, 0x69, 0x61,
  0x73, 0x41, 0x64, 0x64, 0x00, 0x00, 0x00, 0x00, 0x02, 0x00, 0x00, 0x00,
  0x01, 0x00, 0x00, 0x00, 0x10, 0x00, 0x00, 0x00, 0x22, 0xf6, 0xff, 0xff,
  0x00, 0x00, 0x00, 0x01, 0x18, 0x00, 0x00, 0x00, 0x20, 0x00, 0x00, 0x00,
  0x3c, 0x00, 0x00, 0x00, 0x08, 0x00, 0x00, 0x00, 0x00, 0x00, 0x00, 0x09,
  0x90, 0x00, 0x00, 0x00, 0x02, 0x00, 0x00, 0x00, 0xff, 0xff, 0xff, 0xff,
  0x20, 0x00, 0x00, 0x00, 0x0c, 0xf6, 0xff, 0xff, 0x08, 0x00, 0x00, 0x00,
  0x10, 0x00, 0x00, 0x00, 0x01, 0x00, 0x00, 0x00, 0x80, 0xff, 0xff, 0xff,
  0xff, 0xff, 0xff, 0xff, 0x01, 0x00, 0x00, 0x00, 0x09, 0xb9, 0xc3, 0x3c,
  0x58, 0x00, 0x00, 0x00, 0x73, 0x65, 0x71, 0x75, 0x65, 0x6e, 0x74, 0x69,
  0x61, 0x6c, 0x5f, 0x31, 0x2f, 0x68, 0x69, 0x64, 0x64, 0x65, 0x6e, 0x31,
  0x5f, 0x31, 0x2f, 0x4d, 0x61, 0x74, 0x4d, 0x75, 0x6c, 0x3b, 0x73, 0x65,
  0x71, 0x75, 0x65, 0x6e, 0x74, 0x69, 0x61, 0x6c, 0x5f, 0x31, 0x2f, 0x68,
  0x69, 0x64, 0x64, 0x65, 0x6e, 0x31, 0x5f, 0x31, 0x2f, 0x52, 0x65, 0x6c,
  0x75, 0x3b, 0x73, 0x65, 0x71, 0x75, 0x65, 0x6e, 0x74, 0x69, 0x61, 0x6c,
  0x5f, 0x31, 0x2f, 0x68, 0x69, 0x64, 0x64, 0x65, 0x6e, 0x31, 0x5f, 0x31,
  0x2f, 0x42, 0x69, 0x61, 0x73, 0x41, 0x64, 0x64, 0x00, 0x00, 0x00, 0x00,
  0x02, 0x00, 0x00, 0x00, 0x01, 0x00, 0x00, 0x00, 0x20, 0x00, 0x00, 0x00,
  0x5e, 0xf8, 0xff, 0xff, 0x00, 0x00, 0x00, 0x01, 0x14, 0x00, 0x00, 0x00,
  0xa4, 0x01, 0x00, 0x00, 0x07, 0x00, 0x00, 0x00, 0x00, 0x00, 0x00, 0x09,
  0xbc, 0x01, 0x00, 0x00, 0xb4, 0xf6, 0xff, 0xff, 0x08, 0x00, 0x00, 0x00,
  0x08, 0x01, 0x00, 0x00, 0x20, 0x00, 0x00, 0x00, 0x00, 0x00, 0x00, 0x00,
  0x00, 0x00, 0x00, 0x00, 0x00, 0x00, 0x00, 0x00, 0x00, 0x00, 0x00, 0x00,
  0x00, 0x00, 0x00, 0x00, 0x00, 0x00, 0x00, 0x00, 0x00, 0x00, 0x00, 0x00,
  0x00, 0x00, 0x00, 0x00, 0x00, 0x00, 0x00, 0x00, 0x00, 0x00, 0x00, 0x00,
  0x00, 0x00, 0x00, 0x00, 0x00, 0x00, 0x00, 0x00, 0x00, 0x00, 0x00, 0x00,
  0x00, 0x00, 0x00, 0x00, 0x00, 0x00, 0x00, 0x00, 0x00, 0x00, 0x00, 0x00,
  0x00, 0x00, 0x00, 0x00, 0x00, 0x00, 0x00, 0x00, 0x00, 0x00, 0x00, 0x00,
  0x00, 0x00, 0x00, 0x00, 0x00, 0x00, 0x00, 0x00, 0x00, 0x00, 0x00, 0x00,
  0x00, 0x00, 0x00, 0x00, 0x00, 0x00, 0x00, 0x00, 0x00, 0x00, 0x00, 0x00,
  0x00, 0x00, 0x00, 0x00, 0x00, 0x00, 0x00, 0x00, 0x00, 0x00, 0x00, 0x00,
  0x00, 0x00, 0x00, 0x00, 0x00, 0x00, 0x00, 0x00, 0x00, 0x00, 0x00, 0x00,
  0x00, 0x00, 0x00, 0x00, 0x00, 0x00, 0x00, 0x00, 0x00, 0x00, 0x00, 0x00,
  0x00, 0x00, 0x00, 0x00, 0x00, 0x00, 0x00, 0x00, 0x00, 0x00, 0x00, 0x00,
  0x00, 0x00, 0x00, 0x00, 0x00, 0x00, 0x00, 0x00, 0x00, 0x00, 0x00, 0x00,
  0x00, 0x00, 0x00, 0x00, 0x00, 0x00, 0x00, 0x00, 0x00, 0x00, 0x00, 0x00,
  0x00, 0x00, 0x00, 0x00, 0x00, 0x00, 0x00, 0x00, 0x00, 0x00, 0x00, 0x00,
  0x00, 0x00, 0x00, 0x00, 0x00, 0x00, 0x00, 0x00, 0x00, 0x00, 0x00, 0x00,
  0x00, 0x00, 0x00, 0x00, 0x00, 0x00, 0x00, 0x00, 0x00, 0x00, 0x00, 0x00,
  0x00, 0x00, 0x00, 0x00, 0x00, 0x00, 0x00, 0x00, 0x00, 0x00, 0x00, 0x00,
  0x00, 0x00, 0x00, 0x00, 0x00, 0x00, 0x00, 0x00, 0x00, 0x00, 0x00, 0x00,
  0x00, 0x00, 0x00, 0x00, 0x00, 0x00, 0x00, 0x00, 0x00, 0x00, 0x00, 0x00,
  0x00, 0x00, 0x00, 0x00, 0x00, 0x00, 0x00, 0x00, 0x00, 0x00, 0x00, 0x00,
  0x20, 0x00, 0x00, 0x00, 0xf5, 0xcb, 0x34, 0x3c, 0x3b, 0x36, 0xfa, 0x3b,
  0x9c, 0xec, 0x06, 0x3c, 0x65, 0x88, 0xfa, 0x3b, 0x5a, 0x27, 0xd7, 0x3b,
  0x76, 0xa2, 0x21, 0x3c, 0x79, 0x52, 0x2c, 0x3c, 0xdc, 0xec, 0xe7, 0x3b,
  0x78, 0xdb, 0x3c, 0x3c, 0x28, 0x39, 0xd2, 0x3b, 0x16, 0x76, 0xf5, 0x3b,
  0xc1, 0x1e, 0xc9, 0x3b, 0x0a, 0x54, 0x2d, 0x3c, 0x9a, 0x90, 0xdb, 0x3b,
  0x2b, 0x2c, 0x04, 0x3c, 0xe9, 0x14, 0xf0, 0x3b, 0xbf, 0xad, 0xc8, 0x3b,
  0x9f, 0x06, 0xd7, 0x3b, 0x65, 0xba, 0x2e, 0x3c, 0x21, 0x8a, 0x41, 0x3c,
  0x69, 0x52, 0xf9, 0x3b, 0xf8, 0xff, 0xf9, 0x3b, 0x26, 0xd9, 0x07, 0x3c,
  0x4a, 0xa0, 0x03, 0x3c, 0xb5, 0x07, 0x05, 0x3c, 0x1c, 0x1a, 0x10, 0x3c,
  0x10, 0x2e, 0x0b, 0x3c, 0xa2, 0xc2, 0x02, 0x3c, 0x77, 0xc5, 0xbe, 0x3b,
  0x96, 0xbc, 0xca, 0x3b, 0xc2, 0xd2, 0x04, 0x3c, 0xb9, 0xeb, 0xb1, 0x3b,
  0x1d, 0x00, 0x00, 0x00, 0x73, 0x65, 0x71, 0x75, 0x65, 0x6e, 0x74, 0x69,
  0x61, 0x6c, 0x5f, 0x31, 0x2f, 0x68, 0x69, 0x64, 0x64, 0x65, 0x6e, 0x31,
  0x5f, 0x31, 0x2f, 0x4d, 0x61, 0x74, 0x4d, 0x75, 0x6c, 0x00, 0x00, 0x00,
  0x02, 0x00, 0x00, 0x00, 0x20, 0x00, 0x00, 0x00, 0x07, 0x00, 0x00, 0x00,
  0x3e, 0xfa, 0xff, 0xff, 0x00, 0x00, 0x00, 0x01, 0x14, 0x00, 0x00, 0x00,
  0xa4, 0x01, 0x00, 0x00, 0x06, 0x00, 0x00, 0x00, 0x00, 0x00, 0x00, 0x02,
  0xd8, 0x01, 0x00, 0x00, 0x94, 0xf8, 0xff, 0xff, 0x08, 0x00, 0x00, 0x00,
  0x08, 0x01, 0x00, 0x00, 0x20, 0x00, 0x00, 0x00, 0x00, 0x00, 0x00, 0x00,
  0x00, 0x00, 0x00, 0x00, 0x00, 0x00, 0x00, 0x00, 0x00, 0x00, 0x00, 0x00,
  0x00, 0x00, 0x00, 0x00, 0x00, 0x00, 0x00, 0x00, 0x00, 0x00, 0x00, 0x00,
  0x00, 0x00, 0x00, 0x00, 0x00, 0x00, 0x00, 0x00, 0x00, 0x00, 0x00, 0x00,
  0x00, 0x00, 0x00, 0x00, 0x00, 0x00, 0x00, 0x00, 0x00, 0x00, 0x00, 0x00,
  0x00, 0x00, 0x00, 0x00, 0x00, 0x00, 0x00, 0x00, 0x00, 0x00, 0x00, 0x00,
  0x00, 0x00, 0x00, 0x00, 0x00, 0x00, 0x00, 0x00, 0x00, 0x00, 0x00, 0x00,
  0x00, 0x00, 0x00, 0x00, 0x00, 0x00, 0x00, 0x00, 0x00, 0x00, 0x00, 0x00,
  0x00, 0x00, 0x00, 0x00, 0x00, 0x00, 0x00, 0x00, 0x00, 0x00, 0x00, 0x00,
  0x00, 0x00, 0x00, 0x00, 0x00, 0x00, 0x00, 0x00, 0x00, 0x00, 0x00, 0x00,
  0x00, 0x00, 0x00, 0x00, 0x00, 0x00, 0x00, 0x00, 0x00, 0x00, 0x00, 0x00,
  0x00, 0x00, 0x00, 0x00, 0x00, 0x00, 0x00, 0x00, 0x00, 0x00, 0x00, 0x00,
  0x00, 0x00, 0x00, 0x00, 0x00, 0x00, 0x00, 0x00, 0x00, 0x00, 0x00, 0x00,
  0x00, 0x00, 0x00, 0x00, 0x00, 0x00, 0x00, 0x00, 0x00, 0x00, 0x00, 0x00,
  0x00, 0x00, 0x00, 0x00, 0x00, 0x00, 0x00, 0x00, 0x00, 0x00, 0x00, 0x00,
  0x00, 0x00, 0x00, 0x00, 0x00, 0x00, 0x00, 0x00, 0x00, 0x00, 0x00, 0x00,
  0x00, 0x00, 0x00, 0x00, 0x00, 0x00, 0x00, 0x00, 0x00, 0x00, 0x00, 0x00,
  0x00, 0x00, 0x00, 0x00, 0x00, 0x00, 0x00, 0x00, 0x00, 0x00, 0x00, 0x00,
  0x00, 0x00, 0x00, 0x00, 0x00, 0x00, 0x00, 0x00, 0x00, 0x00, 0x00, 0x00,
  0x00, 0x00, 0x00, 0x00, 0x00, 0x00, 0x00, 0x00, 0x00, 0x00, 0x00, 0x00,
  0x00, 0x00, 0x00, 0x00, 0x00, 0x00, 0x00, 0x00, 0x00, 0x00, 0x00, 0x00,
  0x00, 0x00, 0x00, 0x00, 0x00, 0x00, 0x00, 0x00, 0x00, 0x00, 0x00, 0x00,
  0x20, 0x00, 0x00, 0x00, 0x59, 0x59, 0xa2, 0x39, 0x6b, 0xae, 0x60, 0x39,
  0x7a, 0x50, 0x72, 0x39, 0x33, 0xf8, 0x60, 0x39, 0x4c, 0x33, 0x41, 0x39,
  0x63, 0x24, 0x91, 0x39, 0x3a, 0xbd, 0x9a, 0x39, 0xb7, 0x42, 0x50, 0x39,
  0x4e, 0x96, 0xa9, 0x39, 0xe4, 0xc5, 0x3c, 0x39, 0x5e, 0x6a, 0x5c, 0x39,
  0x46, 0x99, 0x34, 0x39, 0x83, 0xa4, 0x9b, 0x39, 0x53, 0x29, 0x45, 0x39,
  0x5a, 0x5f, 0x6d, 0x39, 0xb6, 0x95, 0x57, 0x39, 0xcc, 0x33, 0x34, 0x39,
  0xe8, 0x15, 0x41, 0x39, 0x4d, 0xe6, 0x9c, 0x39, 0xa9, 0xca, 0xad, 0x39,
  0xd8, 0xe1, 0x5f, 0x39, 0xb2, 0x7d, 0x60, 0x39, 0x49, 0xf9, 0x73, 0x39,
  0x23, 0x64, 0x6c, 0x39, 0xa0, 0xe9, 0x6e, 0x39, 0x01, 0x66, 0x81, 0x39,
  0x0f, 0xf5, 0x79, 0x39, 0x0f, 0xd6, 0x6a, 0x39, 0x4e, 0x4e, 0x2b, 0x39,
  0xe1, 0x0c, 0x36, 0x39, 0x89, 0x8a, 0x6e, 0x39, 0x3c, 0xc4, 0x1f, 0x39,
  0x3a, 0x00, 0x00, 0x00, 0x73, 0x65, 0x71, 0x75, 0x65, 0x6e, 0x74, 0x69,
  0x61, 0x6c, 0x5f, 0x31, 0x2f, 0x68, 0x69, 0x64, 0x64, 0x65, 0x6e, 0x31,
  0x5f, 0x31, 0x2f, 0x52, 0x65, 0x6c, 0x75, 0x3b, 0x73, 0x65, 0x71, 0x75,
  0x65, 0x6e, 0x74, 0x69, 0x61, 0x6c, 0x5f, 0x31, 0x2f, 0x68, 0x69, 0x64,
  0x64, 0x65, 0x6e, 0x31, 0x5f, 0x31, 0x2f, 0x42, 0x69, 0x61, 0x73, 0x41,
  0x64, 0x64, 0x00, 0x00, 0x01, 0x00, 0x00, 0x00, 0x20, 0x00, 0x00, 0x00,
  0x36, 0xfc, 0xff, 0xff, 0x00, 0x00, 0x00, 0x01, 0x14, 0x00, 0x00, 0x00,
  0xe4, 0x00, 0x00, 0x00, 0x05, 0x00, 0x00, 0x00, 0x00, 0x00, 0x00, 0x09,
  0xfc, 0x00, 0x00, 0x00, 0x8c, 0xfa, 0xff, 0xff, 0x08, 0x00, 0x00, 0x00,
  0x88, 0x00, 0x00, 0x00, 0x10, 0x00, 0x00, 0x00, 0x00, 0x00, 0x00, 0x00,
  0x00, 0x00, 0x00, 0x00, 0x00, 0x00, 0x00, 0x00, 0x00, 0x00, 0x00, 0x00,
  0x00, 0x00, 0x00, 0x00, 0x00, 0x00, 0x00, 0x00, 0x00, 0x00, 0x00, 0x00,
  0x00, 0x00, 0x00, 0x00, 0x00, 0x00, 0x00, 0x00, 0x00, 0x00, 0x00, 0x00,
  0x00, 0x00, 0x00, 0x00, 0x00, 0x00, 0x00, 0x00, 0x00, 0x00, 0x00, 0x00,
  0x00, 0x00, 0x00, 0x00, 0x00, 0x00, 0x00, 0x00, 0x00, 0x00, 0x00, 0x00,
  0x00, 0x00, 0x00, 0x00, 0x00, 0x00, 0x00, 0x00, 0x00, 0x00, 0x00, 0x00,
  0x00, 0x00, 0x00, 0x00, 0x00, 0x00, 0x00, 0x00, 0x00, 0x00, 0x00, 0x00,
  0x00, 0x00, 0x00, 0x00, 0x00, 0x00, 0x00, 0x00, 0x00, 0x00, 0x00, 0x00,
  0x00, 0x00, 0x00, 0x00, 0x00, 0x00, 0x00, 0x00, 0x00, 0x00, 0x00, 0x00,
  0x00, 0x00, 0x00, 0x00, 0x00, 0x00, 0x00, 0x00, 0x00, 0x00, 0x00, 0x00,
  0x00, 0x00, 0x00, 0x00, 0x10, 0x00, 0x00, 0x00, 0x79, 0x19, 0x00, 0x3c,
  0xe7, 0xe5, 0x10, 0x3c, 0x7a, 0xdc, 0xd2, 0x3b, 0x62, 0x18, 0x07, 0x3c,
  0x85, 0x48, 0xbf, 0x3b, 0xf3, 0x07, 0xfe, 0x3b, 0x6e, 0xb6, 0xed, 0x3b,
  0x1e, 0x4b, 0x07, 0x3c, 0xc7, 0x88, 0xe1, 0x3b, 0xbe, 0xf5, 0xe7, 0x3b,
  0x8b, 0x6d, 0xda, 0x3b, 0x01, 0x99, 0xf1, 0x3b, 0xa8, 0xa8, 0xdc, 0x3b,
  0xf6, 0x23, 0xd6, 0x3b, 0xbf, 0x4c, 0xf5, 0x3b, 0x90, 0x45, 0xe2, 0x3b,
  0x1d, 0x00, 0x00, 0x00, 0x73, 0x65, 0x71, 0x75, 0x65, 0x6e, 0x74, 0x69,
  0x61, 0x6c, 0x5f, 0x31, 0x2f, 0x68, 0x69, 0x64, 0x64, 0x65, 0x6e, 0x32,
  0x5f, 0x31, 0x2f, 0x4d, 0x61, 0x74, 0x4d, 0x75, 0x6c, 0x00, 0x00, 0x00,
  0x02, 0x00, 0x00, 0x00, 0x10, 0x00, 0x00, 0x00, 0x20, 0x00, 0x00, 0x00,
  0x56, 0xfd, 0xff, 0xff, 0x00, 0x00, 0x00, 0x01, 0x14, 0x00, 0x00, 0x00,
  0xe4, 0x00, 0x00, 0x00, 0x04, 0x00, 0x00, 0x00, 0x00, 0x00, 0x00, 0x02,
  0x18, 0x01, 0x00, 0x00, 0xac, 0xfb, 0xff, 0xff, 0x08, 0x00, 0x00, 0x00,
  0x88, 0x00, 0x00, 0x00, 0x10, 0x00, 0x00, 0x00, 0x00, 0x00, 0x00, 0x00,
  0x00, 0x00, 0x00, 0x00, 0x00, 0x00, 0x00, 0x00, 0x00, 0x00, 0x00, 0x00,
  0x00, 0x00, 0x00, 0x00, 0x00, 0x00, 0x00, 0x00, 0x00, 0x00, 0x00, 0x00,
  0x00, 0x00, 0x00, 0x00, 0x00, 0x00, 0x00, 0x00, 0x00, 0x00, 0x00, 0x00,
  0x00, 0x00, 0x00, 0x00, 0x00, 0x00, 0x00, 0x00, 0x00, 0x00, 0x00, 0x00,
  0x00, 0x00, 0x00, 0x00, 0x00, 0x00, 0x00, 0x00, 0x00, 0x00, 0x00, 0x00,
  0x00, 0x00, 0x00, 0x00, 0x00, 0x00, 0x00, 0x00, 0x00, 0x00, 0x00, 0x00,
  0x00, 0x00, 0x00, 0x00, 0x00, 0x00, 0x00, 0x00, 0x00, 0x00, 0x00, 0x00,
  0x00, 0x00, 0x00, 0x00, 0x00, 0x00, 0x00, 0x00, 0x00, 0x00, 0x00, 0x00,
  0x00, 0x00, 0x00, 0x00, 0x00, 0x00, 0x00, 0x00, 0x00, 0x00, 0x00, 0x00,
  0x00, 0x00, 0x00, 0x00, 0x00, 0x00, 0x00, 0x00, 0x00, 0x00, 0x00, 0x00,
  0x00, 0x00, 0x00, 0x00, 0x10, 0x00, 0x00, 0x00, 0xfc, 0xdf, 0x43, 0x39,
  0xb4, 0x8f, 0x5d, 0x39, 0x5a, 0x36, 0x21, 0x39, 0x70, 0x92, 0x4e, 0x39,
  0x7f, 0x3e, 0x12, 0x39, 0xab, 0x37, 0x42, 0x39, 0xc7, 0xbd, 0x35, 0x39,
  0x04, 0xe0, 0x4e, 0x39, 0x33, 0x6e, 0x2c, 0x39, 0xd8, 0x57, 0x31, 0x39,
  0x52, 0xff, 0x26, 0x39, 0x2c, 0xb6, 0x38, 0x39, 0xf6, 0xb3, 0x28, 0x39,
  0x2c, 0xb8, 0x23, 0x39, 0xc3, 0x8a, 0x3b, 0x39, 0x89, 0xfe, 0x2c, 0x39,
  0x3a, 0x00, 0x00, 0x00, 0x73, 0x65, 0x71, 0x75, 0x65, 0x6e, 0x74, 0x69,
  0x61, 0x6c, 0x5f, 0x31, 0x2f, 0x68, 0x69, 0x64, 0x64, 0x65, 0x6e, 0x32,
  0x5f, 0x31, 0x2f, 0x52, 0x65, 0x6c, 0x75, 0x3b, 0x73, 0x65, 0x71, 0x75,
  0x65, 0x6e, 0x74, 0x69, 0x61, 0x6c, 0x5f, 0x31, 0x2f, 0x68, 0x69, 0x64,
  0x64, 0x65, 0x6e, 0x32, 0x5f, 0x31, 0x2f, 0x42, 0x69, 0x61, 0x73, 0x41,
  0x64, 0x64, 0x00, 0x00, 0x01, 0x00, 0x00, 0x00, 0x10, 0x00, 0x00, 0x00,
  0x8e, 0xfe, 0xff, 0xff, 0x00, 0x00, 0x00, 0x01, 0x14, 0x00, 0x00, 0x00,
  0x30, 0x01, 0x00, 0x00, 0x03, 0x00, 0x00, 0x00, 0x00, 0x00, 0x00, 0x09,
  0x4c, 0x01, 0x00, 0x00, 0xe4, 0xfc, 0xff, 0xff, 0x08, 0x00, 0x00, 0x00,
  0xbc, 0x00, 0x00, 0x00, 0x16, 0x00, 0x00, 0x00, 0x00, 0x00, 0x00, 0x00,
  0x00, 0x00, 0x00, 0x00, 0x00, 0x00, 0x00, 0x00, 0x00, 0x00, 0x00, 0x00,
  0x00, 0x00, 0x00, 0x00, 0x00, 0x00, 0x00, 0x00, 0x00, 0x00, 0x00, 0x00,
  0x00, 0x00, 0x00, 0x00, 0x00, 0x00, 0x00, 0x00, 0x00, 0x00, 0x00, 0x00,
  0x00, 0x00, 0x00, 0x00, 0x00, 0x00, 0x00, 0x00, 0x00, 0x00, 0x00, 0x00,
  0x00, 0x00, 0x00, 0x00, 0x00, 0x00, 0x00, 0x00, 0x00, 0x00, 0x00, 0x00,
  0x00, 0x00, 0x00, 0x00, 0x00, 0x00, 0x00, 0x00, 0x00, 0x00, 0x00, 0x00,
  0x00, 0x00, 0x00, 0x00, 0x00, 0x00, 0x00, 0x00, 0x00, 0x00, 0x00, 0x00,
  0x00, 0x00, 0x00, 0x00, 0x00, 0x00, 0x00, 0x00, 0x00, 0x00, 0x00, 0x00,
  0x00, 0x00, 0x00, 0x00, 0x00, 0x00, 0x00, 0x00, 0x00, 0x00, 0x00, 0x00,
  0x00, 0x00, 0x00, 0x00, 0x00, 0x00, 0x00, 0x00, 0x00, 0x00, 0x00, 0x00,
  0x00, 0x00, 0x00, 0x00, 0x00, 0x00, 0x00, 0x00, 0x00, 0x00, 0x00, 0x00,
  0x00, 0x00, 0x00, 0x00, 0x00, 0x00, 0x00, 0x00, 0x00, 0x00, 0x00, 0x00,
  0x00, 0x00, 0x00, 0x00, 0x00, 0x00, 0x00, 0x00, 0x00, 0x00, 0x00, 0x00,
  0x00, 0x00, 0x00, 0x00, 0x00, 0x00, 0x00, 0x00, 0x00, 0x00, 0x00, 0x00,
  0x00, 0x00, 0x00, 0x00, 0x00, 0x00, 0x00, 0x00, 0x16, 0x00, 0x00, 0x00,
  0x89, 0x1e, 0x33, 0x3c, 0xcd, 0x5c, 0xfa, 0x3b, 0x1f, 0xf5, 0xfc, 0x3b,
  0xe4, 0x6f, 0x03, 0x3c, 0x63, 0xd7, 0x2c, 0x3c, 0x62, 0xea, 0x42, 0x3c,
  0x0a, 0x2f, 0x1c, 0x3c, 0x65, 0x63, 0xfc, 0x3b, 0xd8, 0xf2, 0x2c, 0x3c,
  0xb8, 0x61, 0x16, 0x3c, 0xc9, 0xff, 0x3b, 0x3c, 0x32, 0xfd, 0x0f, 0x3c,
  0x1a, 0x8e, 0xf2, 0x3b, 0x52, 0x0d, 0x3e, 0x3c, 0xd7, 0x8c, 0x21, 0x3c,
  0x5d, 0x49, 0x3c, 0x3c, 0xff, 0x93, 0x08, 0x3c, 0xb9, 0xa7, 0x16, 0x3c,
  0x34, 0x46, 0xef, 0x3b, 0x7d, 0x49, 0x5a, 0x3c, 0x06, 0x25, 0x6a, 0x3c,
  0x58, 0x9f, 0x0c, 0x3c, 0x21, 0x00, 0x00, 0x00, 0x73, 0x65, 0x71, 0x75,
  0x65, 0x6e, 0x74, 0x69, 0x61, 0x6c, 0x5f, 0x31, 0x2f, 0x63, 0x72, 0x6f,
  0x70, 0x5f, 0x6f, 0x75, 0x74, 0x70, 0x75, 0x74, 0x5f, 0x31, 0x2f, 0x4d,
  0x61, 0x74, 0x4d, 0x75, 0x6c, 0x00, 0x00, 0x00, 0x02, 0x00, 0x00, 0x00,
  0x16, 0x00, 0x00, 0x00, 0x10, 0x00, 0x00, 0x00, 0x00, 0x00, 0x16, 0x00,
  0x1c, 0x00, 0x18, 0x00, 0x17, 0x00, 0x10, 0x00, 0x0c, 0x00, 0x08, 0x00,
  0x00, 0x00, 0x00, 0x00, 0x00, 0x00, 0x07, 0x00, 0x16, 0x00, 0x00, 0x00,
  0x00, 0x00, 0x00, 0x01, 0x14, 0x00, 0x00, 0x00, 0x30, 0x01, 0x00, 0x00,
  0x02, 0x00, 0x00, 0x00, 0x00, 0x00, 0x00, 0x02, 0x4c, 0x01, 0x00, 0x00,
  0x6c, 0xfe, 0xff, 0xff, 0x08, 0x00, 0x00, 0x00, 0xbc, 0x00, 0x00, 0x00,
  0x16, 0x00, 0x00, 0x00, 0x00, 0x00, 0x00, 0x00, 0x00, 0x00, 0x00, 0x00,
  0x00, 0x00, 0x00, 0x00, 0x00, 0x00, 0x00, 0x00, 0x00, 0x00, 0x00, 0x00,
  0x00, 0x00, 0x00, 0x00, 0x00, 0x00, 0x00, 0x00, 0x00, 0x00, 0x00, 0x00,
  0x00, 0x00, 0x00, 0x00, 0x00, 0x00, 0x00, 0x00, 0x00, 0x00, 0x00, 0x00,
  0x00, 0x00, 0x00, 0x00, 0x00, 0x00, 0x00, 0x00, 0x00, 0x00, 0x00, 0x00,
  0x00, 0x00, 0x00, 0x00, 0x00, 0x00, 0x00, 0x00, 0x00, 0x00, 0x00, 0x00,
  0x00, 0x00, 0x00, 0x00, 0x00, 0x00, 0x00, 0x00, 0x00, 0x00, 0x00, 0x00,
  0x00, 0x00, 0x00, 0x00, 0x00, 0x00, 0x00, 0x00, 0x00, 0x00, 0x00, 0x00,
  0x00, 0x00, 0x00, 0x00, 0x00, 0x00, 0x00, 0x00, 0x00, 0x00, 0x00, 0x00,
  0x00, 0x00, 0x00, 0x00, 0x00, 0x00, 0x00, 0x00, 0x00, 0x00, 0x00, 0x00,
  0x00, 0x00, 0x00, 0x00, 0x00, 0x00, 0x00, 0x00, 0x00, 0x00, 0x00, 0x00,
  0x00, 0x00, 0x00, 0x00, 0x00, 0x00, 0x00, 0x00, 0x00, 0x00, 0x00, 0x00,
  0x00, 0x00, 0x00, 0x00, 0x00, 0x00, 0x00, 0x00, 0x00, 0x00, 0x00, 0x00,
  0x00, 0x00, 0x00, 0x00, 0x00, 0x00, 0x00, 0x00, 0x00, 0x00, 0x00, 0x00,
  0x00, 0x00, 0x00, 0x00, 0x00, 0x00, 0x00, 0x00, 0x00, 0x00, 0x00, 0x00,
  0x00, 0x00, 0x00, 0x00, 0x16, 0x00, 0x00, 0x00, 0x80, 0x25, 0x6e, 0x3a,
  0x03, 0x6f, 0x26, 0x3a, 0xa2, 0x28, 0x28, 0x3a, 0x43, 0xc0, 0x2e, 0x3a,
  0xbb, 0xcc, 0x65, 0x3a, 0xfb, 0x92, 0x81, 0x3a, 0x1a, 0xa7, 0x4f, 0x3a,
  0xc2, 0xc7, 0x27, 0x3a, 0x3c, 0xf1, 0x65, 0x3a, 0x4f, 0xf0, 0x47, 0x3a,
  0xe1, 0xf3, 0x79, 0x3a, 0x7c, 0x70, 0x3f, 0x3a, 0x56, 0x3e, 0x21, 0x3a,
  0x9a, 0xae, 0x7c, 0x3a, 0xa1, 0xc9, 0x56, 0x3a, 0xb4, 0x55, 0x7a, 0x3a,
  0x14, 0x96, 0x35, 0x3a, 0x62, 0x4d, 0x48, 0x3a, 0xff, 0x0f, 0x1f, 0x3a,
  0x60, 0x1c, 0x91, 0x3a, 0x09, 0xa7, 0x9b, 0x3a, 0x9d, 0xf6, 0x3a, 0x3a,
  0x22, 0x00, 0x00, 0x00, 0x73, 0x65, 0x71, 0x75, 0x65, 0x6e, 0x74, 0x69,
  0x61, 0x6c, 0x5f, 0x31, 0x2f, 0x63, 0x72, 0x6f, 0x70, 0x5f, 0x6f, 0x75,
  0x74, 0x70, 0x75, 0x74, 0x5f, 0x31, 0x2f, 0x42, 0x69, 0x61, 0x73, 0x41,
  0x64, 0x64, 0x00, 0x00, 0x01, 0x00, 0x00, 0x00, 0x16, 0x00, 0x00, 0x00,
  0x00, 0x00, 0x16, 0x00, 0x20, 0x00, 0x1c, 0x00, 0x1b, 0x00, 0x14, 0x00,
  0x10, 0x00, 0x0c, 0x00, 0x00, 0x00, 0x00, 0x00, 0x08, 0x00, 0x07, 0x00,
  0x16, 0x00, 0x00, 0x00, 0x00, 0x00, 0x00, 0x01, 0x18, 0x00, 0x00, 0x00,
  0x2c, 0x00, 0x00, 0x00, 0x48, 0x00, 0x00, 0x00, 0x01, 0x00, 0x00, 0x00,
  0x00, 0x00, 0x00, 0x09, 0x68, 0x00, 0x00, 0x00, 0x02, 0x00, 0x00, 0x00,
  0xff, 0xff, 0xff, 0xff, 0x07, 0x00, 0x00, 0x00, 0x0c, 0x00, 0x0c, 0x00,
  0x00, 0x00, 0x00, 0x00, 0x08, 0x00, 0x04, 0x00, 0x0c, 0x00, 0x00, 0x00,
  0x08, 0x00, 0x00, 0x00, 0x10, 0x00, 0x00, 0x00, 0x01, 0x00, 0x00, 0x00,
  0x00, 0x00, 0x00, 0x00, 0x00, 0x00, 0x00, 0x00, 0x01, 0x00, 0x00, 0x00,
  0xff, 0xe0, 0xe5, 0x3c, 0x24, 0x00, 0x00, 0x00, 0x73, 0x65, 0x72, 0x76,
  0x69, 0x6e, 0x67, 0x5f, 0x64, 0x65, 0x66, 0x61, 0x75, 0x6c, 0x74, 0x5f,
  0x73, 0x6f, 0x69, 0x6c, 0x5f, 0x63, 0x6c, 0x69, 0x6d, 0x61, 0x74, 0x65,
  0x5f, 0x69, 0x6e, 0x70, 0x75, 0x74, 0x3a, 0x30, 0x00, 0x00, 0x00, 0x00,
  0x02, 0x00, 0x00, 0x00, 0x01, 0x00, 0x00, 0x00, 0x07, 0x00, 0x00, 0x00,
  0x02, 0x00, 0x00, 0x00, 0x24, 0x00, 0x00, 0x00, 0x04, 0x00, 0x00, 0x00,
  0xf0, 0xff, 0xff, 0xff, 0x19, 0x00, 0x00, 0x00, 0x02, 0x00, 0x00, 0x00,
  0x00, 0x00, 0x00, 0x19, 0x0c, 0x00, 0x10, 0x00, 0x0f, 0x00, 0x00, 0x00,
  0x08, 0x00, 0x04, 0x00, 0x0c, 0x00, 0x00, 0x00, 0x09, 0x00, 0x00, 0x00,
  0x04, 0x00, 0x00, 0x00, 0x00, 0x00, 0x00, 0x09
};

#endif